/*
 * Copyright (c) 2025 EdgeImpulse Inc.
 *
 * Generated by Edge Impulse and licensed under the applicable Edge Impulse
 * Terms of Service. Community and Professional Terms of Service
 * (https://edgeimpulse.com/legal/terms-of-service) or Enterprise Terms of
 * Service (https://edgeimpulse.com/legal/enterprise-terms-of-service),
 * according to your product plan subscription (the “License”).
 *
 * This software, documentation and other associated files (collectively referred
 * to as the “Software”) is a single SDK variation generated by the Edge Impulse
 * platform and requires an active paid Edge Impulse subscription to use this
 * Software for any purpose.
 *
 * You may NOT use this Software unless you have an active Edge Impulse subscription
 * that meets the eligibility requirements for the applicable License, subject to
 * your full and continued compliance with the terms and conditions of the License,
 * including without limitation any usage restrictions under the applicable License.
 *
 * If you do not have an active Edge Impulse product plan subscription, or if use
 * of this Software exceeds the usage limitations of your Edge Impulse product plan
 * subscription, you are not permitted to use this Software and must immediately
 * delete and erase all copies of this Software within your control or possession.
 * Edge Impulse reserves all rights and remedies available to enforce its rights.
 *
 * Unless required by applicable law or agreed to in writing, the Software is
 * distributed on an "AS IS" BASIS, WITHOUT WARRANTIES OR CONDITIONS OF ANY KIND,
 * either express or implied. See the License for the specific language governing
 * permissions, disclaimers and limitations under the License.
 */

#ifndef _EI_CLASSIFIER_TFLITE_LEARN_12_H_
#define _EI_CLASSIFIER_TFLITE_LEARN_12_H_

#define EI_CLASSIFIER_TFLITE_LEARN_12_ARENA_SIZE     3212
const size_t tflite_learn_12_arena_size = 3212;

#if defined __GNUC__
#define ALIGN(X) __attribute__((aligned(X)))
#elif defined _MSC_VER
#define ALIGN(X) __declspec(align(X))
#elif defined __TASKING__
#define ALIGN(X) __align(X)
#else
#define ALIGN(X)
#endif

#if defined(EI_MODEL_SECTION) && (defined(__GNUC__) || defined(__clang__))
#define STRINGIZE(x) #x
#define STRINGIZE_VALUE_OF(x) STRINGIZE(x)
#define MODEL_SECTION(X) __attribute__((section(STRINGIZE_VALUE_OF(X))))
#else
#define MODEL_SECTION(X)
#endif


MODEL_SECTION(EI_MODEL_SECTION) ALIGN(16) const unsigned char tflite_learn_12[] = {
  0x1c, 0x00, 0x00, 0x00, 0x54, 0x46, 0x4c, 0x33, 0x14, 0x00, 0x20, 0x00,
  0x1c, 0x00, 0x18, 0x00, 0x14, 0x00, 0x10, 0x00, 0x0c, 0x00, 0x00, 0x00,
  0x08, 0x00, 0x04, 0x00, 0x14, 0x00, 0x00, 0x00, 0x1c, 0x00, 0x00, 0x00,
  0x1c, 0x00, 0x00, 0x00, 0x74, 0x00, 0x00, 0x00, 0x3c, 0x01, 0x00, 0x00,
  0x4c, 0x01, 0x00, 0x00, 0xfc, 0x0a, 0x00, 0x00, 0x03, 0x00, 0x00, 0x00,
  0x00, 0x00, 0x00, 0x00, 0x02, 0x00, 0x00, 0x00, 0x34, 0x00, 0x00, 0x00,
  0x04, 0x00, 0x00, 0x00, 0xdc, 0xff, 0xff, 0xff, 0x07, 0x00, 0x00, 0x00,
  0x04, 0x00, 0x00, 0x00, 0x13, 0x00, 0x00, 0x00, 0x43, 0x4f, 0x4e, 0x56,
  0x45, 0x52, 0x53, 0x49, 0x4f, 0x4e, 0x5f, 0x4d, 0x45, 0x54, 0x41, 0x44,
  0x41, 0x54, 0x41, 0x00, 0x08, 0x00, 0x0c, 0x00, 0x08, 0x00, 0x04, 0x00,
  0x08, 0x00, 0x00, 0x00, 0x06, 0x00, 0x00, 0x00, 0x04, 0x00, 0x00, 0x00,
  0x13, 0x00, 0x00, 0x00, 0x6d, 0x69, 0x6e, 0x5f, 0x72, 0x75, 0x6e, 0x74,
  0x69, 0x6d, 0x65, 0x5f, 0x76, 0x65, 0x72, 0x73, 0x69, 0x6f, 0x6e, 0x00,
  0x08, 0x00, 0x00, 0x00, 0xc4, 0x00, 0x00, 0x00, 0xbc, 0x00, 0x00, 0x00,
  0xa4, 0x00, 0x00, 0x00, 0x9c, 0x00, 0x00, 0x00, 0x94, 0x00, 0x00, 0x00,
  0x8c, 0x00, 0x00, 0x00, 0x6c, 0x00, 0x00, 0x00, 0x04, 0x00, 0x00, 0x00,
  0xce, 0xfe, 0xff, 0xff, 0x04, 0x00, 0x00, 0x00, 0x58, 0x00, 0x00, 0x00,
  0x0c, 0x00, 0x00, 0x00, 0x08, 0x00, 0x0c, 0x00, 0x08, 0x00, 0x04, 0x00,
  0x08, 0x00, 0x00, 0x00, 0x10, 0x00, 0x00, 0x00, 0x28, 0x00, 0x00, 0x00,
  0x08, 0x00, 0x0c, 0x00, 0x08, 0x00, 0x07, 0x00, 0x08, 0x00, 0x00, 0x00,
  0x00, 0x00, 0x00, 0x01, 0x04, 0x00, 0x00, 0x00, 0x00, 0x00, 0x00, 0x00,
  0x00, 0x00, 0x0a, 0x00, 0x10, 0x00, 0x0c, 0x00, 0x08, 0x00, 0x04, 0x00,
  0x0a, 0x00, 0x00, 0x00, 0x03, 0x00, 0x00, 0x00, 0x02, 0x00, 0x00, 0x00,
  0x04, 0x00, 0x00, 0x00, 0x06, 0x00, 0x00, 0x00, 0x32, 0x2e, 0x31, 0x33,
  0x2e, 0x30, 0x00, 0x00, 0x32, 0xff, 0xff, 0xff, 0x04, 0x00, 0x00, 0x00,
  0x10, 0x00, 0x00, 0x00, 0x31, 0x2e, 0x35, 0x2e, 0x30, 0x00, 0x00, 0x00,
  0x00, 0x00, 0x00, 0x00, 0x00, 0x00, 0x00, 0x00, 0x30, 0xf6, 0xff, 0xff,
  0x34, 0xf6, 0xff, 0xff, 0x38, 0xf6, 0xff, 0xff, 0x5a, 0xff, 0xff, 0xff,
  0x04, 0x00, 0x00, 0x00, 0x08, 0x00, 0x00, 0x00, 0x01, 0x00, 0x00, 0x00,
  0x06, 0x00, 0x00, 0x00, 0x50, 0xf6, 0xff, 0xff, 0x54, 0xf6, 0xff, 0xff,
  0x0f, 0x00, 0x00, 0x00, 0x4d, 0x4c, 0x49, 0x52, 0x20, 0x43, 0x6f, 0x6e,
  0x76, 0x65, 0x72, 0x74, 0x65, 0x64, 0x2e, 0x00, 0x01, 0x00, 0x00, 0x00,
  0x14, 0x00, 0x00, 0x00, 0x00, 0x00, 0x0e, 0x00, 0x18, 0x00, 0x14, 0x00,
  0x10, 0x00, 0x0c, 0x00, 0x08, 0x00, 0x04, 0x00, 0x0e, 0x00, 0x00, 0x00,
  0x14, 0x00, 0x00, 0x00, 0x1c, 0x00, 0x00, 0x00, 0xd4, 0x07, 0x00, 0x00,
  0xd8, 0x07, 0x00, 0x00, 0xdc, 0x07, 0x00, 0x00, 0x04, 0x00, 0x00, 0x00,
  0x6d, 0x61, 0x69, 0x6e, 0x00, 0x00, 0x00, 0x00, 0x03, 0x00, 0x00, 0x00,
  0x94, 0x00, 0x00, 0x00, 0x5c, 0x00, 0x00, 0x00, 0x14, 0x00, 0x00, 0x00,
  0x00, 0x00, 0x0e, 0x00, 0x1a, 0x00, 0x14, 0x00, 0x10, 0x00, 0x0c, 0x00,
  0x0b, 0x00, 0x04, 0x00, 0x0e, 0x00, 0x00, 0x00, 0x1c, 0x00, 0x00, 0x00,
  0x00, 0x00, 0x00, 0x09, 0x1c, 0x00, 0x00, 0x00, 0x20, 0x00, 0x00, 0x00,
  0x02, 0x00, 0x00, 0x00, 0x00, 0x00, 0x06, 0x00, 0x08, 0x00, 0x04, 0x00,
  0x06, 0x00, 0x00, 0x00, 0x00, 0x00, 0x80, 0x3f, 0x01, 0x00, 0x00, 0x00,
  0x04, 0x00, 0x00, 0x00, 0x01, 0x00, 0x00, 0x00, 0x03, 0x00, 0x00, 0x00,
  0x00, 0x00, 0x0a, 0x00, 0x10, 0x00, 0x0c, 0x00, 0x08, 0x00, 0x04, 0x00,
  0x0a, 0x00, 0x00, 0x00, 0x0c, 0x00, 0x00, 0x00, 0x10, 0x00, 0x00, 0x00,
  0x01, 0x00, 0x00, 0x00, 0x01, 0x00, 0x00, 0x00, 0x03, 0x00, 0x00, 0x00,
  0x02, 0x00, 0x00, 0x00, 0x02, 0x00, 0x00, 0x00, 0x01, 0x00, 0x00, 0x00,
  0x10, 0x00, 0x10, 0x00, 0x00, 0x00, 0x0c, 0x00, 0x08, 0x00, 0x00, 0x00,
  0x00, 0x00, 0x04, 0x00, 0x10, 0x00, 0x00, 0x00, 0x0c, 0x00, 0x00, 0x00,
  0x0c, 0x07, 0x00, 0x00, 0x10, 0x07, 0x00, 0x00, 0xfd, 0x06, 0x00, 0x00,
  0x76, 0x65, 0x72, 0x73, 0x69, 0x6f, 0x6e, 0x00, 0x74, 0x72, 0x65, 0x65,
  0x5f, 0x69, 0x6e, 0x64, 0x65, 0x78, 0x5f, 0x74, 0x79, 0x70, 0x65, 0x00,
  0x06, 0x75, 0x69, 0x6e, 0x74, 0x31, 0x36, 0x00, 0x63, 0x6c, 0x61, 0x73,
  0x73, 0x5f, 0x69, 0x6e, 0x64, 0x65, 0x78, 0x5f, 0x74, 0x79, 0x70, 0x65,
  0x00, 0x05, 0x75, 0x69, 0x6e, 0x74, 0x38, 0x00, 0x6e, 0x6f, 0x64, 0x65,
  0x5f, 0x76, 0x61, 0x6c, 0x75, 0x65, 0x5f, 0x74, 0x79, 0x70, 0x65, 0x00,
  0x07, 0x66, 0x6c, 0x6f, 0x61, 0x74, 0x33, 0x32, 0x00, 0x65, 0x71, 0x75,
  0x61, 0x6c, 0x69, 0x74, 0x79, 0x5f, 0x6f, 0x70, 0x65, 0x72, 0x61, 0x74,
  0x6f, 0x72, 0x00, 0x03, 0x6c, 0x65, 0x71, 0x00, 0x6e, 0x75, 0x6d, 0x5f,
  0x6c, 0x65, 0x61, 0x66, 0x5f, 0x6e, 0x6f, 0x64, 0x65, 0x73, 0x00, 0x6e,
  0x75, 0x6d, 0x5f, 0x69, 0x6e, 0x74, 0x65, 0x72, 0x6e, 0x61, 0x6c, 0x5f,
  0x6e, 0x6f, 0x64, 0x65, 0x73, 0x00, 0x6e, 0x75, 0x6d, 0x5f, 0x74, 0x72,
  0x65, 0x65, 0x73, 0x00, 0x63, 0x6c, 0x61, 0x73, 0x73, 0x5f, 0x77, 0x65,
  0x69, 0x67, 0x68, 0x74, 0x5f, 0x74, 0x79, 0x70, 0x65, 0x00, 0x07, 0x66,
  0x6c, 0x6f, 0x61, 0x74, 0x33, 0x32, 0x00, 0x6e, 0x6f, 0x64, 0x65, 0x73,
  0x5f, 0x66, 0x65, 0x61, 0x74, 0x75, 0x72, 0x65, 0x69, 0x64, 0x73, 0x00,
  0x59, 0x76, 0x00, 0x4f, 0x00, 0x46, 0x00, 0x0e, 0x00, 0x8f, 0x00, 0x58,
  0x00, 0x37, 0x00, 0x68, 0x00, 0x89, 0x00, 0x91, 0x00, 0x5e, 0x00, 0x3d,
  0x00, 0x2f, 0x00, 0x44, 0x00, 0x88, 0x00, 0x92, 0x00, 0x36, 0x00, 0x3e,
  0x00, 0x29, 0x00, 0x83, 0x00, 0xa3, 0x00, 0x4c, 0x00, 0x8f, 0x00, 0x6d,
  0x00, 0x4a, 0x00, 0x09, 0x00, 0x95, 0x00, 0x75, 0x00, 0xa4, 0x00, 0x40,
  0x00, 0x36, 0x00, 0xa0, 0x00, 0x73, 0x00, 0x77, 0x00, 0xa4, 0x00, 0x6f,
  0x00, 0xa4, 0x00, 0x49, 0x00, 0x9a, 0x00, 0x82, 0x00, 0x8f, 0x00, 0x68,
  0x00, 0x2a, 0x00, 0x5f, 0x00, 0xa0, 0x00, 0x27, 0x00, 0x19, 0x00, 0x36,
  0x00, 0x95, 0x00, 0x27, 0x00, 0x6d, 0x00, 0x5d, 0x00, 0x42, 0x00, 0x5a,
  0x00, 0x13, 0x00, 0x92, 0x00, 0xa6, 0x00, 0x4b, 0x00, 0x30, 0x00, 0x0c,
  0x00, 0x42, 0x00, 0x09, 0x00, 0x37, 0x00, 0x73, 0x00, 0x94, 0x00, 0x42,
  0x00, 0xa7, 0x00, 0x78, 0x00, 0x05, 0x00, 0x95, 0x00, 0x35, 0x00, 0x2f,
  0x00, 0x6d, 0x00, 0x0e, 0x00, 0x49, 0x00, 0x36, 0x00, 0x91, 0x00, 0xa4,
  0x00, 0x36, 0x00, 0x28, 0x00, 0x6b, 0x00, 0x4f, 0x00, 0x5a, 0x00, 0x15,
  0x00, 0x9d, 0x00, 0x68, 0x00, 0x7f, 0x00, 0x90, 0x00, 0xa5, 0x00, 0x6e,
  0x6f, 0x64, 0x65, 0x73, 0x5f, 0x76, 0x61, 0x6c, 0x75, 0x65, 0x73, 0x00,
  0x59, 0x6a, 0x7f, 0x40, 0x3e, 0xfc, 0x71, 0x21, 0x3a, 0x16, 0x4b, 0x77,
  0x40, 0x1b, 0x9d, 0x7a, 0x40, 0xa4, 0xb6, 0xd6, 0xbd, 0x3b, 0xf2, 0x2c,
  0xbc, 0x1e, 0x2a, 0x97, 0x3f, 0x0f, 0x15, 0x3d, 0x3c, 0x28, 0xc5, 0xd2,
  0x3a, 0x6a, 0x43, 0xe5, 0x3c, 0x71, 0x26, 0x05, 0x3b, 0x1c, 0x1e, 0x6d,
  0x39, 0x5d, 0x14, 0x94, 0x39, 0x70, 0xbd, 0xcc, 0x3f, 0x7c, 0x7f, 0x81,
  0x38, 0xd8, 0x54, 0xb5, 0x3d, 0xac, 0x39, 0x0f, 0x3e, 0x66, 0x8f, 0x13,
  0x3c, 0x60, 0x30, 0x6c, 0x3f, 0xe7, 0xe6, 0x32, 0x3b, 0xa2, 0x58, 0x4e,
  0x3c, 0xa6, 0x9c, 0xd0, 0x3a, 0x34, 0x47, 0xc7, 0xbd, 0xb3, 0xa3, 0xd7,
  0x3c, 0x86, 0x90, 0x09, 0xb9, 0xe1, 0x50, 0x3b, 0x3b, 0x32, 0x59, 0xc2,
  0x3d, 0x0c, 0xc7, 0x1c, 0x3d, 0x1a, 0x3c, 0x28, 0x38, 0xc0, 0xd2, 0x9d,
  0x37, 0x70, 0x71, 0x1c, 0x3e, 0x56, 0x9c, 0x73, 0x3b, 0x42, 0xef, 0x2a,
  0xbe, 0x0f, 0xcf, 0xd1, 0x3b, 0x4a, 0xc0, 0x94, 0x39, 0xdc, 0xe8, 0x8f,
  0x3f, 0x4c, 0x05, 0x2b, 0x39, 0xa9, 0x73, 0x71, 0xba, 0x8c, 0xf7, 0x5c,
  0x40, 0x21, 0x07, 0x95, 0xbb, 0x23, 0x3e, 0xcc, 0xbd, 0x32, 0x9c, 0x7f,
  0x3d, 0x38, 0xff, 0x5d, 0x40, 0x2c, 0xac, 0x33, 0x3d, 0xaa, 0x47, 0x70,
  0x3b, 0xaa, 0xcc, 0xb7, 0x3b, 0x5b, 0x46, 0xc5, 0x39, 0xac, 0x39, 0x0f,
  0x3e, 0x99, 0x60, 0xb7, 0x3c, 0xc4, 0x59, 0x95, 0x3b, 0xc9, 0xa3, 0xde,
  0x3c, 0x5e, 0x42, 0x3a, 0x3d, 0xd0, 0x8e, 0xed, 0x37, 0xc4, 0x4c, 0xb2,
  0x3c, 0xfc, 0xd3, 0x65, 0x39, 0xc5, 0x36, 0xa4, 0x3d, 0x58, 0x3b, 0x1c,
  0x3f, 0xbe, 0xd9, 0xdb, 0x39, 0xc9, 0xc9, 0x96, 0x3a, 0xca, 0x5a, 0xd9,
  0xbe, 0x1c, 0xc3, 0x3f, 0x38, 0x07, 0x91, 0x9c, 0x3a, 0xdc, 0xc7, 0x3f,
  0x3e, 0x43, 0x2e, 0x12, 0xbe, 0x33, 0xa8, 0xa5, 0xb8, 0x8d, 0xee, 0x35,
  0x38, 0xd0, 0x52, 0x9f, 0x3f, 0xbe, 0x4d, 0x8e, 0xb8, 0x48, 0x29, 0x34,
  0x3b, 0xfa, 0xe9, 0xbe, 0x3d, 0x7c, 0xc5, 0x73, 0x39, 0x2a, 0xeb, 0xb2,
  0x38, 0xf6, 0x80, 0xbf, 0x3c, 0x52, 0xfc, 0x68, 0x40, 0x18, 0x4d, 0x8b,
  0xba, 0x82, 0xe6, 0x3e, 0x3e, 0x50, 0x98, 0xd2, 0x3c, 0x58, 0xf0, 0x8a,
  0x36, 0x35, 0x8f, 0x01, 0x3f, 0x9f, 0x04, 0xe5, 0x3e, 0xfa, 0x0a, 0xe7,
  0x3b, 0x72, 0x88, 0xcb, 0x39, 0x70, 0x38, 0x2f, 0x3d, 0xe0, 0x7b, 0x23,
  0x38, 0xcd, 0xa0, 0x54, 0xbb, 0xf4, 0x81, 0x69, 0x3d, 0xc4, 0x37, 0xa2,
  0x3d, 0xcc, 0x11, 0x0e, 0xbd, 0xc9, 0xe7, 0x57, 0x3c, 0x6e, 0x6f, 0x64,
  0x65, 0x73, 0x5f, 0x74, 0x72, 0x75, 0x65, 0x6e, 0x6f, 0x64, 0x65, 0x69,
  0x64, 0x73, 0x00, 0x59, 0x5b, 0x00, 0x00, 0x00, 0x5a, 0x00, 0x5e, 0x00,
  0x02, 0x00, 0x61, 0x00, 0x60, 0x00, 0x04, 0x00, 0x59, 0x00, 0x65, 0x00,
  0x64, 0x00, 0x63, 0x00, 0x67, 0x00, 0x0c, 0x00, 0x6a, 0x00, 0x0d, 0x00,
  0x0b, 0x00, 0x6c, 0x00, 0x6e, 0x00, 0x11, 0x00, 0x10, 0x00, 0x70, 0x00,
  0x15, 0x00, 0x16, 0x00, 0x17, 0x00, 0x75, 0x00, 0x19, 0x00, 0x18, 0x00,
  0x78, 0x00, 0x7b, 0x00, 0x1d, 0x00, 0x7a, 0x00, 0x1c, 0x00, 0x7e, 0x00,
  0x80, 0x00, 0x21, 0x00, 0x20, 0x00, 0x85, 0x00, 0x84, 0x00, 0x83, 0x00,
  0x27, 0x00, 0x88, 0x00, 0x29, 0x00, 0x28, 0x00, 0x82, 0x00, 0x8e, 0x00,
  0x8d, 0x00, 0x8c, 0x00, 0x8b, 0x00, 0x90, 0x00, 0x31, 0x00, 0x30, 0x00,
  0x96, 0x00, 0x95, 0x00, 0x35, 0x00, 0x9a, 0x00, 0x99, 0x00, 0x9c, 0x00,
  0x38, 0x00, 0x36, 0x00, 0x3b, 0x00, 0x94, 0x00, 0x93, 0x00, 0xa1, 0x00,
  0xa0, 0x00, 0x40, 0x00, 0xa4, 0x00, 0xa6, 0x00, 0x42, 0x00, 0x41, 0x00,
  0x9f, 0x00, 0xa9, 0x00, 0x47, 0x00, 0xac, 0x00, 0xae, 0x00, 0x49, 0x00,
  0x48, 0x00, 0xa8, 0x00, 0xb0, 0x00, 0x4e, 0x00, 0xb4, 0x00, 0xb3, 0x00,
  0x4f, 0x00, 0x52, 0x00, 0x53, 0x00, 0x54, 0x00, 0xba, 0x00, 0xb9, 0x00,
  0x55, 0x00, 0x6e, 0x6f, 0x64, 0x65, 0x73, 0x5f, 0x66, 0x61, 0x6c, 0x73,
  0x65, 0x6e, 0x6f, 0x64, 0x65, 0x69, 0x64, 0x73, 0x00, 0x59, 0x5c, 0x00,
  0x5d, 0x00, 0x01, 0x00, 0x5f, 0x00, 0x03, 0x00, 0x62, 0x00, 0x05, 0x00,
  0x06, 0x00, 0x07, 0x00, 0x66, 0x00, 0x09, 0x00, 0x0a, 0x00, 0x68, 0x00,
  0x69, 0x00, 0x6b, 0x00, 0x0e, 0x00, 0x0f, 0x00, 0x6d, 0x00, 0x6f, 0x00,
  0x12, 0x00, 0x13, 0x00, 0x71, 0x00, 0x72, 0x00, 0x73, 0x00, 0x74, 0x00,
  0x76, 0x00, 0x77, 0x00, 0x1a, 0x00, 0x79, 0x00, 0x7c, 0x00, 0x7d, 0x00,
  0x1e, 0x00, 0x1f, 0x00, 0x7f, 0x00, 0x81, 0x00, 0x22, 0x00, 0x23, 0x00,
  0x86, 0x00, 0x25, 0x00, 0x26, 0x00, 0x87, 0x00, 0x89, 0x00, 0x8a, 0x00,
  0x2a, 0x00, 0x2b, 0x00, 0x8f, 0x00, 0x2d, 0x00, 0x2e, 0x00, 0x2f, 0x00,
  0x91, 0x00, 0x92, 0x00, 0x32, 0x00, 0x97, 0x00, 0x34, 0x00, 0x98, 0x00,
  0x9b, 0x00, 0x37, 0x00, 0x9d, 0x00, 0x39, 0x00, 0x3a, 0x00, 0x9e, 0x00,
  0x3c, 0x00, 0x3d, 0x00, 0xa2, 0x00, 0x3f, 0x00, 0xa3, 0x00, 0xa5, 0x00,
  0xa7, 0x00, 0x43, 0x00, 0x44, 0x00, 0x45, 0x00, 0xaa, 0x00, 0xab, 0x00,
  0xad, 0x00, 0xaf, 0x00, 0x4a, 0x00, 0x4b, 0x00, 0x4c, 0x00, 0xb1, 0x00,
  0xb2, 0x00, 0xb5, 0x00, 0x50, 0x00, 0x51, 0x00, 0xb6, 0x00, 0xb7, 0x00,
  0xb8, 0x00, 0xbb, 0x00, 0x56, 0x00, 0x57, 0x00, 0x6e, 0x6f, 0x64, 0x65,
  0x73, 0x5f, 0x77, 0x65, 0x69, 0x67, 0x68, 0x74, 0x73, 0x00, 0x63, 0x00,
  0x00, 0x80, 0x3f, 0x00, 0x00, 0x80, 0x3f, 0x00, 0x00, 0x80, 0x3f, 0x00,
  0x00, 0x80, 0x3f, 0x00, 0x00, 0x80, 0x3f, 0x00, 0x00, 0x80, 0x3f, 0x00,
  0x00, 0x80, 0x3f, 0x00, 0x00, 0x80, 0x3f, 0x00, 0x00, 0x80, 0x3f, 0x00,
  0x00, 0x80, 0x3f, 0x00, 0x00, 0x80, 0x3f, 0x00, 0x00, 0x80, 0x3f, 0x00,
  0x00, 0x80, 0x3f, 0x00, 0x00, 0x80, 0x3f, 0x00, 0x00, 0x80, 0x3f, 0x00,
  0x00, 0x80, 0x3f, 0x00, 0x00, 0x80, 0x3f, 0x00, 0x00, 0x80, 0x3f, 0x00,
  0x00, 0x80, 0x3f, 0x00, 0x00, 0x80, 0x3f, 0x00, 0x00, 0x80, 0x3f, 0x00,
  0x00, 0x80, 0x3f, 0x00, 0x00, 0x80, 0x3f, 0x00, 0x00, 0x80, 0x3f, 0x00,
  0x00, 0x80, 0x3f, 0x00, 0x00, 0x80, 0x3f, 0x00, 0x00, 0x80, 0x3f, 0x00,
  0x00, 0x80, 0x3f, 0x00, 0x00, 0x80, 0x3f, 0x00, 0x00, 0x80, 0x3f, 0x00,
  0x00, 0x80, 0x3f, 0x00, 0x00, 0x80, 0x3f, 0x00, 0x00, 0x80, 0x3f, 0x00,
  0x00, 0x80, 0x3f, 0x00, 0x00, 0x80, 0x3f, 0x00, 0x00, 0x80, 0x3f, 0x00,
  0x00, 0x80, 0x3f, 0x00, 0x00, 0x80, 0x3f, 0x00, 0x00, 0x80, 0x3f, 0x00,
  0x00, 0x80, 0x3f, 0x00, 0x00, 0x80, 0x3f, 0x00, 0x00, 0x80, 0x3f, 0x00,
  0x00, 0x80, 0x3f, 0x00, 0x00, 0x80, 0x3f, 0x00, 0x00, 0x80, 0x3f, 0x00,
  0x00, 0x80, 0x3f, 0x00, 0x00, 0x80, 0x3f, 0x00, 0x00, 0x80, 0x3f, 0x00,
  0x00, 0x80, 0x3f, 0x00, 0x00, 0x80, 0x3f, 0x00, 0x00, 0x80, 0x3f, 0x00,
  0x00, 0x80, 0x3f, 0x00, 0x00, 0x80, 0x3f, 0x00, 0x00, 0x80, 0x3f, 0x00,
  0x00, 0x80, 0x3f, 0x00, 0x00, 0x80, 0x3f, 0x00, 0x00, 0x80, 0x3f, 0x00,
  0x00, 0x80, 0x3f, 0x00, 0x00, 0x80, 0x3f, 0x00, 0x00, 0x80, 0x3f, 0x00,
  0x00, 0x80, 0x3f, 0x00, 0x00, 0x80, 0x3f, 0x00, 0x00, 0x80, 0x3f, 0x00,
  0x00, 0x80, 0x3f, 0x00, 0x00, 0x80, 0x3f, 0x00, 0x00, 0x80, 0x3f, 0x00,
  0x00, 0x80, 0x3f, 0x00, 0x00, 0x80, 0x3f, 0x00, 0x00, 0x80, 0x3f, 0x00,
  0x00, 0x80, 0x3f, 0x00, 0x00, 0x80, 0x3f, 0x00, 0x00, 0x80, 0x3f, 0x00,
  0x00, 0x80, 0x3f, 0x00, 0x00, 0x80, 0x3f, 0x00, 0x00, 0x80, 0x3f, 0x00,
  0x00, 0x80, 0x3f, 0x00, 0x00, 0x80, 0x3f, 0x00, 0x00, 0x80, 0x3f, 0x00,
  0x00, 0x80, 0x3f, 0x00, 0x00, 0x80, 0x3f, 0x00, 0x00, 0x80, 0x3f, 0x00,
  0x00, 0x80, 0x3f, 0x00, 0x00, 0x80, 0x3f, 0x00, 0x00, 0x80, 0x3f, 0x00,
  0x00, 0x80, 0x3f, 0x00, 0x00, 0x80, 0x3f, 0x00, 0x00, 0x80, 0x3f, 0x00,
  0x00, 0x80, 0x3f, 0x00, 0x00, 0x80, 0x3f, 0x00, 0x00, 0x80, 0x3f, 0x00,
  0x00, 0x80, 0x3f, 0x00, 0x00, 0x80, 0x3f, 0x00, 0x00, 0x80, 0x3f, 0x00,
  0x00, 0x80, 0x3f, 0x00, 0x00, 0x80, 0x3f, 0x00, 0x00, 0x80, 0x3f, 0x00,
  0x00, 0x80, 0x3f, 0x00, 0x00, 0x80, 0x3f, 0x00, 0x00, 0x80, 0x3f, 0x6e,
  0x6f, 0x64, 0x65, 0x73, 0x5f, 0x63, 0x6c, 0x61, 0x73, 0x73, 0x69, 0x64,
  0x73, 0x00, 0x63, 0x02, 0x04, 0x03, 0x04, 0x03, 0x05, 0x04, 0x00, 0x01,
  0x04, 0x02, 0x05, 0x01, 0x00, 0x04, 0x03, 0x02, 0x04, 0x03, 0x03, 0x04,
  0x00, 0x03, 0x04, 0x00, 0x05, 0x01, 0x02, 0x01, 0x03, 0x00, 0x01, 0x03,
  0x02, 0x01, 0x05, 0x04, 0x00, 0x03, 0x04, 0x01, 0x02, 0x03, 0x04, 0x05,
  0x04, 0x05, 0x00, 0x01, 0x00, 0x02, 0x05, 0x04, 0x03, 0x04, 0x03, 0x00,
  0x01, 0x00, 0x02, 0x05, 0x04, 0x00, 0x03, 0x05, 0x04, 0x05, 0x04, 0x03,
  0x01, 0x02, 0x05, 0x03, 0x04, 0x01, 0x00, 0x01, 0x04, 0x03, 0x02, 0x03,
  0x05, 0x01, 0x05, 0x00, 0x03, 0x04, 0x05, 0x03, 0x04, 0x05, 0x04, 0x00,
  0x03, 0x02, 0x01, 0x00, 0x04, 0x01, 0x74, 0x72, 0x65, 0x65, 0x5f, 0x72,
  0x6f, 0x6f, 0x74, 0x5f, 0x69, 0x64, 0x73, 0x00, 0x0a, 0x08, 0x00, 0x14,
  0x00, 0x1b, 0x00, 0x24, 0x00, 0x2c, 0x00, 0x33, 0x00, 0x3e, 0x00, 0x46,
  0x00, 0x4d, 0x00, 0x58, 0x00, 0x00, 0x10, 0x00, 0x84, 0x06, 0x12, 0x06,
  0x57, 0x06, 0x72, 0x06, 0xa1, 0x00, 0x04, 0x03, 0x01, 0x06, 0xcd, 0x03,
  0x41, 0x05, 0x46, 0x02, 0x41, 0x06, 0x52, 0x06, 0x32, 0x06, 0xb6, 0x06,
  0x42, 0x00, 0xc2, 0x06, 0x20, 0x00, 0x02, 0x00, 0x10, 0x00, 0x98, 0x06,
  0x25, 0x06, 0x6a, 0x06, 0x87, 0x06, 0xb7, 0x00, 0x16, 0x03, 0x15, 0x06,
  0xe0, 0x03, 0x59, 0x05, 0x5d, 0x02, 0x59, 0x00, 0x63, 0x00, 0x0a, 0x00,
  0xcb, 0x06, 0x59, 0x00, 0x01, 0x00, 0x14, 0x14, 0x14, 0x14, 0x64, 0x64,
  0x64, 0x64, 0x64, 0x64, 0x09, 0x09, 0x09, 0x14, 0x64, 0x09, 0x30, 0x25,
  0x01, 0x00, 0x00, 0x00, 0x01, 0x00, 0x00, 0x00, 0x02, 0x00, 0x00, 0x00,
  0x01, 0x00, 0x00, 0x00, 0x00, 0x00, 0x00, 0x00, 0x01, 0x00, 0x00, 0x00,
  0x04, 0x00, 0x00, 0x00, 0x01, 0x00, 0x00, 0x00, 0x00, 0x00, 0x00, 0x00,
  0x05, 0x00, 0x00, 0x00, 0x70, 0x01, 0x00, 0x00, 0x08, 0x01, 0x00, 0x00,
  0x9c, 0x00, 0x00, 0x00, 0x40, 0x00, 0x00, 0x00, 0x04, 0x00, 0x00, 0x00,
  0xba, 0xfe, 0xff, 0xff, 0x00, 0x00, 0x00, 0x01, 0x10, 0x00, 0x00, 0x00,
  0x10, 0x00, 0x00, 0x00, 0x05, 0x00, 0x00, 0x00, 0x18, 0x00, 0x00, 0x00,
  0xa4, 0xfe, 0xff, 0xff, 0x0a, 0x00, 0x00, 0x00, 0x49, 0x64, 0x65, 0x6e,
  0x74, 0x69, 0x74, 0x79, 0x5f, 0x31, 0x00, 0x00, 0x02, 0x00, 0x00, 0x00,
  0x01, 0x00, 0x00, 0x00, 0x06, 0x00, 0x00, 0x00, 0xf2, 0xfe, 0xff, 0xff,
  0x00, 0x00, 0x00, 0x01, 0x10, 0x00, 0x00, 0x00, 0x10, 0x00, 0x00, 0x00,
  0x04, 0x00, 0x00, 0x00, 0x28, 0x00, 0x00, 0x00, 0xdc, 0xfe, 0xff, 0xff,
  0x18, 0x00, 0x00, 0x00, 0x6a, 0x61, 0x78, 0x32, 0x74, 0x66, 0x5f, 0x70,
  0x72, 0x65, 0x64, 0x5f, 0x6a, 0x61, 0x78, 0x5f, 0x2f, 0x52, 0x65, 0x73,
  0x68, 0x61, 0x70, 0x65, 0x00, 0x00, 0x00, 0x00, 0x02, 0x00, 0x00, 0x00,
  0x01, 0x00, 0x00, 0x00, 0x06, 0x00, 0x00, 0x00, 0x00, 0x00, 0x0e, 0x00,
  0x14, 0x00, 0x10, 0x00, 0x00, 0x00, 0x0c, 0x00, 0x08, 0x00, 0x04, 0x00,
  0x0e, 0x00, 0x00, 0x00, 0x10, 0x00, 0x00, 0x00, 0x10, 0x00, 0x00, 0x00,
  0x03, 0x00, 0x00, 0x00, 0x34, 0x00, 0x00, 0x00, 0x30, 0xff, 0xff, 0xff,
  0x27, 0x00, 0x00, 0x00, 0x6a, 0x61, 0x78, 0x32, 0x74, 0x66, 0x5f, 0x70,
  0x72, 0x65, 0x64, 0x5f, 0x6a, 0x61, 0x78, 0x5f, 0x2f, 0x54, 0x72, 0x65,
  0x65, 0x45, 0x6e, 0x73, 0x65, 0x6d, 0x62, 0x6c, 0x65, 0x43, 0x6c, 0x61,
  0x73, 0x73, 0x69, 0x66, 0x69, 0x65, 0x72, 0x00, 0x02, 0x00, 0x00, 0x00,
  0x01, 0x00, 0x00, 0x00, 0x06, 0x00, 0x00, 0x00, 0x00, 0x00, 0x16, 0x00,
  0x1c, 0x00, 0x18, 0x00, 0x17, 0x00, 0x10, 0x00, 0x0c, 0x00, 0x08, 0x00,
  0x00, 0x00, 0x00, 0x00, 0x00, 0x00, 0x07, 0x00, 0x16, 0x00, 0x00, 0x00,
  0x00, 0x00, 0x00, 0x01, 0x14, 0x00, 0x00, 0x00, 0x14, 0x00, 0x00, 0x00,
  0x02, 0x00, 0x00, 0x00, 0x00, 0x00, 0x00, 0x02, 0x2c, 0x00, 0x00, 0x00,
  0xa0, 0xff, 0xff, 0xff, 0x1e, 0x00, 0x00, 0x00, 0x6a, 0x61, 0x78, 0x32,
  0x74, 0x66, 0x5f, 0x70, 0x72, 0x65, 0x64, 0x5f, 0x6a, 0x61, 0x78, 0x5f,
  0x2f, 0x52, 0x65, 0x73, 0x68, 0x61, 0x70, 0x65, 0x2f, 0x73, 0x68, 0x61,
  0x70, 0x65, 0x00, 0x00, 0x01, 0x00, 0x00, 0x00, 0x02, 0x00, 0x00, 0x00,
  0x00, 0x00, 0x16, 0x00, 0x18, 0x00, 0x14, 0x00, 0x00, 0x00, 0x10, 0x00,
  0x0c, 0x00, 0x08, 0x00, 0x00, 0x00, 0x00, 0x00, 0x00, 0x00, 0x07, 0x00,
  0x16, 0x00, 0x00, 0x00, 0x00, 0x00, 0x00, 0x01, 0x14, 0x00, 0x00, 0x00,
  0x14, 0x00, 0x00, 0x00, 0x01, 0x00, 0x00, 0x00, 0x18, 0x00, 0x00, 0x00,
  0x04, 0x00, 0x04, 0x00, 0x04, 0x00, 0x00, 0x00, 0x05, 0x00, 0x00, 0x00,
  0x69, 0x6e, 0x70, 0x75, 0x74, 0x00, 0x00, 0x00, 0x02, 0x00, 0x00, 0x00,
  0x01, 0x00, 0x00, 0x00, 0xa8, 0x00, 0x00, 0x00, 0x03, 0x00, 0x00, 0x00,
  0x3c, 0x00, 0x00, 0x00, 0x20, 0x00, 0x00, 0x00, 0x04, 0x00, 0x00, 0x00,
  0xf4, 0xff, 0xff, 0xff, 0x19, 0x00, 0x00, 0x00, 0x00, 0x00, 0x00, 0x19,
  0x0c, 0x00, 0x0c, 0x00, 0x0b, 0x00, 0x00, 0x00, 0x00, 0x00, 0x04, 0x00,
  0x0c, 0x00, 0x00, 0x00, 0x16, 0x00, 0x00, 0x00, 0x00, 0x00, 0x00, 0x16,
  0x0c, 0x00, 0x10, 0x00, 0x0f, 0x00, 0x08, 0x00, 0x00, 0x00, 0x04, 0x00,
  0x0c, 0x00, 0x00, 0x00, 0x20, 0x00, 0x00, 0x00, 0x08, 0x00, 0x00, 0x00,
  0x00, 0x00, 0x00, 0x20, 0x16, 0x00, 0x00, 0x00, 0x54, 0x72, 0x65, 0x65,
  0x45, 0x6e, 0x73, 0x65, 0x6d, 0x62, 0x6c, 0x65, 0x43, 0x6c, 0x61, 0x73,
  0x73, 0x69, 0x66, 0x69, 0x65, 0x72, 0x00, 0x00
};
unsigned int tflite_learn_12_len = 2972;
#endif // _EI_CLASSIFIER_TFLITE_LEARN_12_H_
